    1	  -170.00000  -170.00000     0.01523     0.01523
    2	  -170.00000  -110.00000     0.01523     0.01523
    3	  -170.00000   -50.00000     0.01523     0.01523
    4	  -170.00000    10.00000     0.01523     0.01523
    5	  -170.00000    70.00000     0.01523     0.01523
    6	  -170.00000   130.00000     0.01523     0.01523
    7	  -110.00000  -170.00000     0.01523     0.01523
    8	  -110.00000  -110.00000     0.01523     0.01523
    9	  -110.00000   -50.00000     0.01523     0.01523
   10	  -110.00000    10.00000     0.01523     0.01523
   11	  -110.00000    70.00000     0.01523     0.01523
   12	  -110.00000   130.00000     0.01523     0.01523
   13	   -50.00000  -170.00000     0.01523     0.01523
   14	   -50.00000  -110.00000     0.01523     0.01523
   15	   -50.00000   -50.00000     0.01523     0.01523
   16	   -50.00000    10.00000     0.01523     0.01523
   17	   -50.00000    70.00000     0.01523     0.01523
   18	   -50.00000   130.00000     0.01523     0.01523
   19	    10.00000  -170.00000     0.01523     0.01523
   20	    10.00000  -110.00000     0.01523     0.01523
   21	    10.00000   -50.00000     0.01523     0.01523
   22	    10.00000    10.00000     0.01523     0.01523
   23	    10.00000    70.00000     0.01523     0.01523
   24	    10.00000   130.00000     0.01523     0.01523
   25	    70.00000  -170.00000     0.01523     0.01523
   26	    70.00000  -110.00000     0.01523     0.01523
   27	    70.00000   -50.00000     0.01523     0.01523
   28	    70.00000    10.00000     0.01523     0.01523
   29	    70.00000    70.00000     0.01523     0.01523
   30	    70.00000   130.00000     0.01523     0.01523
   31	   130.00000  -170.00000     0.01523     0.01523
   32	   130.00000  -110.00000     0.01523     0.01523
   33	   130.00000   -50.00000     0.01523     0.01523
   34	   130.00000    10.00000     0.01523     0.01523
   35	   130.00000    70.00000     0.01523     0.01523
   36	   130.00000   130.00000     0.01523     0.01523
